{
    "\u0000": 0,
    "\u0001": 1,
    "\u0002": 2,
    "\u0003": 3,
    "\u0004": 4,
    "\u0005": 5,
    "\u0006": 6,
    "\u0007": 7,
    "\b": 8,
    "\t": 9,
    "\n": 10,
    "\u000b": 11,
    "\f": 12,
    "\r": 13,
    "\u000e": 14,
    "\u000f": 15,
    "\u0010": 16,
    "\u0011": 17,
    "\u0012": 18,
    "\u0013": 19,
    "\u0014": 20,
    "\u0015": 21,
    "\u0016": 22,
    "\u0017": 23,
    "\u0018": 24,
    "\u0019": 25,
    "\u001a": 26,
    "\u001b": 27,
    "\u001c": 28,
    "\u001d": 29,
    "\u001e": 30,
    "\u001f": 31,
    " ": 32,
    "!": 33,
    "\"": 34,
    "#": 35,
    "$": 36,
    "%": 37,
    "&": 38,
    "'": 39,
    "(": 40,
    ")": 41,
    "*": 42,
    "+": 43,
    ",": 44,
    "-": 45,
    ".": 46,
    "/": 47,
    "0": 48,
    "1": 49,
    "2": 50,
    "3": 51,
    "4": 52,
    "5": 53,
    "6": 54,
    "7": 55,
    "8": 56,
    "9": 57,
    ":": 58,
    ";": 59,
    "<": 60,
    "=": 61,
    ">": 62,
    "?": 63,
    "@": 64,
    "A": 65,
    "B": 66,
    "C": 67,
    "D": 68,
    "E": 69,
    "F": 70,
    "G": 71,
    "H": 72,
    "I": 73,
    "J": 74,
    "K": 75,
    "L": 76,
    "M": 77,
    "N": 78,
    "O": 79,
    "P": 80,
    "Q": 81,
    "R": 82,
    "S": 83,
    "T": 84,
    "U": 85,
    "V": 86,
    "W": 87,
    "X": 88,
    "Y": 89,
    "Z": 90,
    "[": 91,
    "\\": 92,
    "]": 93,
    "^": 94,
    "_": 95,
    "`": 96,
    "a": 97,
    "b": 98,
    "c": 99,
    "d": 100,
    "e": 101,
    "f": 102,
    "g": 103,
    "h": 104,
    "i": 105,
    "j": 106,
    "k": 107,
    "l": 108,
    "m": 109,
    "n": 110,
    "o": 111,
    "p": 112,
    "q": 113,
    "r": 114,
    "s": 115,
    "t": 116,
    "u": 117,
    "v": 118,
    "w": 119,
    "x": 120,
    "y": 121,
    "z": 122,
    "{": 123,
    "|": 124,
    "}": 125,
    "~": 126,
    "": 127,
    "": 128,
    "": 129,
    "": 130,
    "": 131,
    "": 132,
    "": 133,
    "": 134,
    "": 135,
    "": 136,
    "": 137,
    "": 138,
    "": 139,
    "": 140,
    "": 141,
    "": 142,
    "": 143,
    "": 144,
    "": 145,
    "": 146,
    "": 147,
    "": 148,
    "": 149,
    "": 150,
    "": 151,
    "": 152,
    "": 153,
    "": 154,
    "": 155,
    "": 156,
    "": 157,
    "": 158,
    "": 159,
    " ": 160,
    "¡": 161,
    "¢": 162,
    "£": 163,
    "¤": 164,
    "¥": 165,
    "¦": 166,
    "§": 167,
    "¨": 168,
    "©": 169,
    "ª": 170,
    "«": 171,
    "¬": 172,
    "­": 173,
    "®": 174,
    "¯": 175,
    "°": 176,
    "±": 177,
    "²": 178,
    "³": 179,
    "´": 180,
    "µ": 181,
    "¶": 182,
    "·": 183,
    "¸": 184,
    "¹": 185,
    "º": 186,
    "»": 187,
    "¼": 188,
    "½": 189,
    "¾": 190,
    "¿": 191,
    "À": 192,
    "Á": 193,
    "Â": 194,
    "Ã": 195,
    "Ä": 196,
    "Å": 197,
    "Æ": 198,
    "Ç": 199,
    "È": 200,
    "É": 201,
    "Ê": 202,
    "Ë": 203,
    "Ì": 204,
    "Í": 205,
    "Î": 206,
    "Ï": 207,
    "Ð": 208,
    "Ñ": 209,
    "Ò": 210,
    "Ó": 211,
    "Ô": 212,
    "Õ": 213,
    "Ö": 214,
    "×": 215,
    "Ø": 216,
    "Ù": 217,
    "Ú": 218,
    "Û": 219,
    "Ü": 220,
    "Ý": 221,
    "Þ": 222,
    "ß": 223,
    "à": 224,
    "á": 225,
    "â": 226,
    "ã": 227,
    "ä": 228,
    "å": 229,
    "æ": 230,
    "ç": 231,
    "è": 232,
    "é": 233,
    "ê": 234,
    "ë": 235,
    "ì": 236,
    "í": 237,
    "î": 238,
    "ï": 239,
    "ð": 240,
    "ñ": 241,
    "ò": 242,
    "ó": 243,
    "ô": 244,
    "õ": 245,
    "ö": 246,
    "÷": 247,
    "ø": 248,
    "ù": 249,
    "ú": 250,
    "û": 251,
    "ü": 252,
    "ý": 253,
    "þ": 254,
    "ÿ": 255,
    "eĠ": 256,
    "th": 257,
    "tĠ": 258,
    "sĠ": 259,
    "ou": 260,
    ",Ġ": 261,
    "dĠ": 262,
    "rĠ": 263,
    "in": 264,
    "an": 265,
    "en": 266,
    "er": 267,
    "yĠ": 268,
    "ar": 269,
    "ll": 270,
    "on": 271,
    "Ġth": 272,
    "you": 273,
    "ha": 274,
    "or": 275,
    "es": 276,
    "oĠ": 277,
    "hi": 278,
    "om": 279,
    "it": 280,
    "ea": 281,
    "no": 282,
    "us": 283,
    "US": 284,
    "US:": 285,
    "llĠ": 286,
    "theĠ": 287,
    "ir": 288,
    "IUS:": 289,
    "ĠtheĠ": 290,
    "stĠ": 291,
    "andĠ": 292,
    "erĠ": 293,
    "fĠ": 294,
    "Th": 295,
    "IĠ": 296,
    "isĠ": 297,
    "ow": 298,
    "wi": 299,
    "at": 300,
    "ing": 301,
    "toĠ": 302,
    "youĠ": 303,
    "st": 304,
    "el": 305,
    ";Ġ": 306,
    "oo": 307,
    "veĠ": 308,
    ".Ġ": 309,
    "re": 310,
    "ch": 311,
    "esĠ": 312,
    "thĠ": 313,
    "ma": 314,
    "di": 315,
    "atĠ": 316,
    "aĠ": 317,
    "inĠ": 318,
    "ourĠ": 319,
    ":Ġ": 320,
    "the": 321,
    "orĠ": 322,
    "ofĠ": 323,
    "li": 324,
    "usĠ": 325,
    "ri": 326,
    "edĠ": 327,
    "heĠ": 328,
    "hatĠ": 329,
    "irstĠ": 330,
    "anĠ": 331,
    "itĠ": 332,
    "e,Ġ": 333,
    "gh": 334,
    "al": 335,
    "AR": 336,
    "IA": 337,
    "IA:": 338,
    "enĠ": 339,
    "ol": 340,
    "be": 341,
    "s,Ġ": 342,
    "wh": 343,
    "yourĠ": 344,
    "FirstĠ": 345,
    "EN": 346,
    "asĠ": 347,
    "mĠ": 348,
    "keĠ": 349,
    "iti": 350,
    "ra": 351,
    "ci": 352,
    "notĠ": 353,
    "la": 354,
    "un": 355,
    "ee": 356,
    "ndĠ": 357,
    "itiz": 358,
    "itizen": 359,
    "oul": 360,
    "ereĠ": 361,
    "'sĠ": 362,
    "chĠ": 363,
    ".M": 364,
    ".V": 365,
    "areĠ": 366,
    "ingĠ": 367,
    "bl": 368,
    "ti": 369,
    "he": 370,
    "Citizen": 371,
    "Citizen:": 372,
    "am": 373,
    "myĠ": 374,
    "to": 375,
    "t,Ġ": 376,
    "hisĠ": 377,
    "ARC": 378,
    "haveĠ": 379,
    "Ġthe": 380,
    "kĠ": 381,
    "ARCIUS:": 382,
    "ce": 383,
    "sh": 384,
    "onĠ": 385,
    "ouldĠ": 386,
    "irĠ": 387,
    "thatĠ": 388,
    "il": 389,
    "for": 390,
    "Mar": 391,
    "y,Ġ": 392,
    "su": 393,
    "com": 394,
    "forĠ": 395,
    "rea": 396,
    "withĠ": 397,
    "TheĠ": 398,
    "we": 399,
    "wor": 400,
    "bu": 401,
    "seĠ": 402,
    "mo": 403,
    "AndĠ": 404,
    "pr": 405,
    "Marci": 406,
    "etĠ": 407,
    "nĠ": 408,
    "ec": 409,
    "d,Ġ": 410,
    "goo": 411,
    "ru": 412,
    "FirstĠCitizen:": 413,
    "sp": 414,
    "therĠ": 415,
    "of": 416,
    "sen": 417,
    "sha": 418,
    "fi": 419,
    "eses": 420,
    "weĠ": 421,
    "now": 422,
    "'llĠ": 423,
    "beĠ": 424,
    "et": 425,
    "!Ġ": 426,
    "s,": 427,
    "Rom": 428,
    "meĠ": 429,
    "ouĠ": 430,
    "wa": 431,
    "goodĠ": 432,
    "theyĠ": 433,
    "ev": 434,
    "ceĠ": 435,
    "oneĠ": 436,
    "ough": 437,
    ".MARCIUS:": 438,
    "ac": 439,
    "is": 440,
    "owĠ": 441,
    "The": 442,
    "Wh": 443,
    "up": 444,
    "'dĠ": 445,
    "ther": 446,
    "ve": 447,
    "ent": 448,
    "our": 449,
    "himĠ": 450,
    "ENEN": 451,
    "ENENIUS:": 452,
    "em": 453,
    "IN": 454,
    "INIUS:": 455,
    "ur": 456,
    "fa": 457,
    "Com": 458,
    "e,": 459,
    "him": 460,
    "butĠ": 461,
    "ga": 462,
    "Marcius": 463,
    "si": 464,
    "sa": 465,
    "ds": 466,
    "willĠ": 467,
    "ta": 468,
    "mad": 469,
    "rom": 470,
    "IR": 471,
    "IRG": 472,
    "IRGI": 473,
    "IRGIL": 474,
    "IRGILIA:": 475,
    "know": 476,
    "e.": 477,
    "WhatĠ": 478,
    "go": 479,
    "sel": 480,
    "lyĠ": 481,
    "shallĠ": 482,
    "?M": 483,
    "earĠ": 484,
    "'t": 485,
    "dsĠ": 486,
    "well": 487,
    "wasĠ": 488,
    "hichĠ": 489,
    "?Ġ": 490,
    "ter": 491,
    "TheyĠ": 492,
    "war": 493,
    "hear": 494,
    "ToĠ": 495,
    "se": 496,
    "ThatĠ": 497,
    "--": 498,
    "o,Ġ": 499,
    ".VIRGILIA:": 500,
    "thanĠ": 501,
    "op": 502,
    "mor": 503,
    "fe": 504,
    "wouldĠ": 505,
    "man": 506,
    "theirĠ": 507,
    "gain": 508,
    "gĠ": 509,
    "whatĠ": 510,
    "tr": 511,
    "lea": 512,
    "ne": 513,
    "doĠ": 514,
    "makeĠ": 515,
    "bo": 516,
    "bell": 517,
    "'Ġ": 518,
    ",AndĠ": 519,
    "AL": 520,
    "ALE": 521,
    "ALER": 522,
    "ALERIA:": 523,
    ",ĠandĠ": 524,
    "econ": 525,
    "oun": 526,
    "par": 527,
    "all": 528,
    "ten": 529,
    "mus": 530,
    "ity": 531,
    "Wi": 532,
    "mostĠ": 533,
    "ck": 534,
    "ini": 535,
    "ans": 536,
    "from": 537,
    "ator": 538,
    "hat": 539,
    "er:": 540,
    "FirstĠS": 541,
    ".VALERIA:": 542,
    "spea": 543,
    "All": 544,
    "e:Ġ": 545,
    "econdĠ": 546,
    "coun": 547,
    "essĠ": 548,
    "ĠthisĠ": 549,
    "do": 550,
    ".S": 551,
    "con": 552,
    "iveĠ": 553,
    "pĠ": 554,
    "ov": 555,
    "o'": 556,
    "ap": 557,
    "estĠ": 558,
    "fri": 559,
    "dy": 560,
    "bleĠ": 561,
    "ers": 562,
    "da": 563,
    "ut": 564,
    "ed": 565,
    "eseĠ": 566,
    "ĠtheirĠ": 567,
    "CO": 568,
    "COM": 569,
    "COMINIUS:": 570,
    "OL": 571,
    "OLU": 572,
    "OLUM": 573,
    "OLUMN": 574,
    "OLUMNIA:": 575,
    "LAR": 576,
    "LART": 577,
    "LARTIUS:": 578,
    "All:": 579,
    ".FirstĠCitizen:": 580,
    "allĠ": 581,
    "ere": 582,
    "gu": 583,
    "ear": 584,
    "ab": 585,
    "with": 586,
    "again": 587,
    ";ĠandĠ": 588,
    "didĠ": 589,
    "mustĠ": 590,
    "wereĠ": 591,
    "and": 592,
    "atat": 593,
    "dee": 594,
    "arm": 595,
    ".MENENIUS:": 596,
    "frien": 597,
    "sir": 598,
    "sĠofĠ": 599,
    "likeĠ": 600,
    "I'llĠ": 601,
    "answ": 602,
    "not": 603,
    "br": 604,
    "sc": 605,
    "esess": 606,
    "enator": 607,
    "enator:": 608,
    "Au": 609,
    "Aufi": 610,
    "Aufidi": 611,
    "madam": 612,
    "ownĠ": 613,
    "if": 614,
    "ghtĠ": 615,
    "ul": 616,
    "o'ĠtheĠ": 617,
    "hon": 618,
    "sĠandĠ": 619,
    "hadĠ": 620,
    "str": 621,
    "vesĠ": 622,
    "byĠ": 623,
    "fo": 624,
    "AĠ": 625,
    "alĠ": 626,
    "grea": 627,
    ",Ġth": 628,
    "inĠtheĠ": 629,
    "TUS:": 630,
    ".LARTIUS:": 631,
    "speak": 632,
    "YouĠ": 633,
    "MarciusĠ": 634,
    "toĠtheĠ": 635,
    "WeĠ": 636,
    "ver": 637,
    "moreĠ": 638,
    "eli": 639,
    "leĠ": 640,
    "le": 641,
    "af": 642,
    "tsĠ": 643,
    "sid": 644,
    "ous": 645,
    "ly": 646,
    "noĠ": 647,
    "your": 648,
    "ves": 649,
    "rum": 650,
    "mil": 651,
    "AsĠ": 652,
    "soĠ": 653,
    "pla": 654,
    "outĠ": 655,
    "bloo": 656,
    "fin": 657,
    "fromĠ": 658,
    "dyĠ": 659,
    "sensen": 660,
    "tion": 661,
    "FirstĠSenator:": 662,
    "oundĠ": 663,
    "knowĠ": 664,
    "ai": 665,
    "letĠ": 666,
    "theĠp": 667,
    "lu": 668,
    "thin": 669,
    "us,Ġ": 670,
    "und": 671,
    "ven": 672,
    "thisĠ": 673,
    "comeĠ": 674,
    "fir": 675,
    "vi": 676,
    "?FirstĠCitizen:": 677,
    "you,Ġ": 678,
    "ĠthatĠ": 679,
    "oughĠ": 680,
    "canĠ": 681,
    "whichĠ": 682,
    "hel": 683,
    "pet": 684,
    "thyĠ": 685,
    "goĠ": 686,
    "WithĠ": 687,
    "pra": 688,
    "min": 689,
    "are": 690,
    "ForĠ": 691,
    "YourĠ": 692,
    "it,Ġ": 693,
    "id": 694,
    "eatĠ": 695,
    "pre": 696,
    "IĠwillĠ": 697,
    "dis": 698,
    "answer": 699,
    "'d": 700,
    "WhichĠ": 701,
    "loo": 702,
    "own": 703,
    "antĠ": 704,
    "oldi": 705,
    "'T": 706,
    "utĠ": 707,
    "herĠ": 708,
    "HeĠ": 709,
    "norĠ": 710,
    "ge": 711,
    "swor": 712,
    "terĠ": 713,
    "senseneses": 714,
    "gg": 715,
    "ggsenseneses": 716,
    "er:er:": 717,
    "er:er:ggsenseneses": 718,
    "Vol": 719,
    "Comini": 720,
    "llow": 721,
    "IC": 722,
    "ICINIUS:": 723,
    "BR": 724,
    "BRU": 725,
    "BRUTUS:": 726,
    "sheĠ": 727,
    "hearĠ": 728,
    "res": 729,
    ",ĠyouĠ": 730,
    "econdĠCitizen:": 731,
    "acac": 732,
    "per": 733,
    "kes": 734,
    "Con": 735,
    "giveĠ": 736,
    "prou": 737,
    "sayĠ": 738,
    "otherĠ": 739,
    "city": 740,
    "lo": 741,
    "terter": 742,
    ",ĠIĠ": 743,
    "ĠtheyĠ": 744,
    "ongĠ": 745,
    "yoursel": 746,
    "te": 747,
    "ant": 748,
    "them": 749,
    "ever": 750,
    "yetĠ": 751,
    "whenĠ": 752,
    "theĠbell": 753,
    "everĠ": 754,
    "apap": 755
}